memory_initialization_radix=16;
memory_initialization_vector=58 4b 60 01 f9 0c d1 e3 df 73 b5 a8 a3 8e 56 09 07 0d 02 0d 05 e9 d5 b9 c8 e8 1b 9f 14 ff d8 2e e0 fe 4a 36 18 6c 05 34 2c db a9 95 a6 6e 59 6a 73 61 5d 46 2c 46 2b 14 16 f7 06 03 3d 37 c5 41 ec 96 2e c7 9d b8 1d de c0 f5 f6 05 d3 42 ce aa 41 fb f6 01 cc aa 07 57 07 18 46 2f 09 d7 f8 0e bf e3 12 76 7d b8 6c dc 07 10 24 2b 33 0e fe aa 0a 46 e4 66 3b e8 cf e0 f0 f7 11 9b a7 f9 18 2b 39 d1 b2 13 06 20 31 08 ed b8 2b 0d 99 f3 21 44 2f f6 39 ef 4d 39 17 19 13 e8 e7 00 33 17 b4 9f 34 17 06 45 1c 38 0e bd fc e6 ae f8 b6 f2 da 57 06 e1 17 1d 11 53 a8 5c d3 b6 32 b2 19 4a 8d 8d 74 ef e1 4b 67 02 06 34 00 02 ff 01 df 12 fd a8 ea fe 04 01 fd a3 5a 01 23 02 00 04 fc 01 56 2b 01 5e e6 04 ff 06 03 17 44 01 9e 41 03 04 ff ff f0 7b 03 0c d2 01 fd 00 ff ab 11 c9 f9 cf bc 94 47 51 74 b1 aa 22 28 a3 fb f4 36 34 00 3e 1b 62 b0 ab 52 19 ef 2a 0e f8 a8 cf f8 46 b9 cc ea 07 e9 e9 7b 66 b6 1b 13 ef 63 1d e4 e6 5e 1c 00 5b 1c 0b f7 da 95 20 8c 00 00 e9 f9 ff ff 13 1b 00 00 4d 16 00 00 fa 07 00 00 13 0b 00 00 29 ff ff ff 8c 03 00 00 af 47 00 00 ca bb ff ff 28 f7 ff ff 0c f9 ff ff 7b 18 00 00 4a 2d 00 00 cf 26 00 00 34 1d 00 00 c6 fd ff ff 13 13 00 00 47 17 00 00 80 e4 ff ff e0 f8 ff ff a2 19 00 00 16 0c 00 00 c9 f9 ff ff 51 0d 00 00 f4 07 00 00 38 1a 00 00 36 12 00 00 07 0a 00 00 48 ff ff ff f6 fc ff ff ae eb ff ff 0f 1d 00 00 28 0a 00 00 a7 f7 ff ff f3 01 00 00 80 fe ff ff 7a 19 00 00 0a f8 ff ff 98 09 00 00 95 e9 ff ff 10 fd ff ff 8a 13 00 00 c0 07 00 00 6d f4 ff ff 44 f8 ff ff 8b f9 ff ff 0a c6 18 63 0c e6 9c 63 0e e7 9c 73 10 e7 9c 73 0e e7 9c 73 0e c6 18 63 0c e6 18 63 8c 31 c6 00 ;