memory_initialization_radix=16;
memory_initialization_vector=58 4b 60 01 f9 0c d1 e3 df 73 b5 a8 a3 8e 56 09 07 0d 02 0d 05 e9 d5 b9 c8 e8 1b 9f 14 ff d8 2e e0 fe 4a 36 18 6c 05 34 2c db a9 95 a6 6e 59 6a 73 61 5d 46 2c 46 2b 14 16 f7 06 03 3d 37 c5 41 ec 96 2e c7 9d b8 1d de c0 f5 f7 05 d3 42 cf aa 41 fb f7 01 cc ab 07 56 07 18 46 2f 09 d8 f8 0e bf e3 11 75 7c b9 6e de 08 10 24 2b 34 0e fe aa 0a 46 e3 66 3b e8 cf e0 f1 f7 12 9b a7 f9 18 2a 38 d1 b2 12 06 20 31 07 ed b7 2a 0d 99 f3 21 44 2f f6 39 ef 4e 39 18 19 13 e8 e7 00 33 17 b4 9f 34 18 05 45 1c 38 0e bd fd e6 ae f8 b7 f3 da 58 06 e1 17 1d 11 53 a8 5c d3 b6 31 b2 19 4a 8d 8e 74 ef e0 4c 67 02 07 35 00 02 ff 01 df 11 fd a7 ea fe 04 01 fd a3 5a 01 23 03 00 04 fc 01 57 2c 01 5f e7 04 ff 06 03 17 44 01 9f 41 03 04 ff ff f0 7b 03 0c d2 01 fd 00 ff aa 11 c8 f8 ce bc 93 46 51 74 b1 a9 23 29 a4 fb f5 36 34 01 3f 1c 62 b0 aa 51 18 ef 29 0e f8 a7 ce f7 46 b9 cb e9 06 e8 e9 7b 67 b6 1b 13 ef 63 1e e4 e7 5f 1c 00 5c 1d 0c f8 db 95 20 8c 00 00 e9 f9 ff ff 13 1b 00 00 4d 16 00 00 fa 07 00 00 13 0b 00 00 29 ff ff ff 8c 03 00 00 af 47 00 00 ca bb ff ff 28 f7 ff ff 0c f9 ff ff 7b 18 00 00 a5 16 00 00 67 13 00 00 9a 0e 00 00 e3 fe ff ff 89 09 00 00 a4 0b 00 00 80 e4 ff ff df f8 ff ff a2 19 00 00 16 0c 00 00 c9 f9 ff ff 51 0d 00 00 f4 07 00 00 38 1a 00 00 36 12 00 00 07 0a 00 00 49 ff ff ff f7 fc ff ff af eb ff ff 0e 1d 00 00 28 0a 00 00 a8 f7 ff ff f4 01 00 00 7f fe ff ff f1 32 00 00 12 f0 ff ff 32 13 00 00 2c d3 ff ff 1c fa ff ff 13 27 00 00 7c 0f 00 00 db e8 ff ff 8b f0 ff ff 1a f3 ff ff 0a c6 18 63 0c 07 21 74 10 c6 18 63 0e e7 9c 73 0e e7 9c 73 0e a5 94 52 0a 07 9d 73 ce 39 e7 00 ;